00111111010110001001100011111011001111110000101111110110010111110011111101111101000100111001110100111110001000100001100011010111
00111110101101010100011111010011001111110110011101110100100111000011111011000011100111011110011000111111011011100101000010101100
00111110100111111110011101001111001111110111001111000000001100100011111100010010100110000100110100111110101101010110001101110010
00111111010111110110101011001110001111010101101101011001010000000011101101110000001010001001111100111101000110111101100101000111