00111111010111110110101011001110001111010101101101011001010000000011101101110000001010001001111100111101000110111101100101000111
00111110101101010100011111010011001111110110011101110100100111000011111011000011100111011110011000111111011011100101000010101100
00111110100111111110011101001111001111110111001111000000001100100011111100010010100110000100110100111110101101010110001101110010
00111111010110001001100011111011001111110000101111110110010111110011111101111101000100111001110100111110001000100001100011010111
00111111000010010100000010011011001111101101001101000011011100000011111010100001100011110111010000111110111000011001000101111011
00111110101110110100111100000001001111110111011100001010110001010011111010110110101100011011000000111111010000010001101011010010
00111110100111110110010100011110001111110100001100111111110011100011111101010111010110010000001100111110001011001101101001101100
00111110101010101101111110011111001111110011101101110010110101010011111010001011011000011001011000111111011111101101100111100000
00111101110001111100111001001110001111100101100111001100101010000011111100001110000001010101001000111110111101101101111110111101
00111111000000110010111101100001001111110100101000010001100000000011111011100101011001011000110000111110110001011101111111100011
00111111001101001010100111001101001111110111110111110111010010000011111001011001001011111110100100111110110011011010011110110001
00111111011110101101101001100110001111100111000100101011011110000011110110001011101000111000100100111110100011110011100010010101
